conv0_param_0 27.1343312808
conv1/dw_param_0 23.2944376545
conv1_param_0 21.9425684997
conv2/dw_param_0 19.6928318641
conv2_param_0 48.8967015262
conv3/dw_param_0 21.4390361661
conv3_param_0 48.847920493
conv4/dw_param_0 90.5430318409
conv4_param_0 72.4383360454
conv5/dw_param_0 21.3218941238
conv5_param_0 117.769221662
conv6/dw_param_0 37.6473632119
conv6_param_0 119.587535769
conv7/dw_param_0 27.8276505212
conv7_param_0 145.55121178
conv8/dw_param_0 25.3071462785
conv8_param_0 91.199442267
conv9/dw_param_0 30.5917900825
conv9_param_0 68.2897934839
conv10/dw_param_0 32.4263879234
conv10_param_0 83.7429915813
conv11/dw_param_0 22.3105033013
conv11_param_0 140.123323673
conv12/dw_param_0 6.2146890293
conv12_param_0 133.902477286
conv13/dw_param_0 2.69677908927
conv13_param_0 139.46880996
conv14_1_param_0 217.114642238
conv14_2_param_0 135.036341695
conv15_1_param_0 363.399615913
conv15_2_param_0 157.428430349
conv16_1_param_0 283.463748659
conv16_2_param_0 140.088296847
conv17_1_param_0 181.295474825
conv17_2_param_0 98.4925936862
conv11_mbox_loc_param_0 78.3555422285
conv11_mbox_conf_param_0 23.8404454112
conv13_mbox_loc_param_0 137.15521692
conv13_mbox_conf_param_0 20.8723271414
conv14_2_mbox_loc_param_0 148.255007027
conv14_2_mbox_conf_param_0 21.0791147728
conv15_2_mbox_loc_param_0 156.434490254
conv15_2_mbox_conf_param_0 22.8982352066
conv16_2_mbox_loc_param_0 163.664553431
conv16_2_mbox_conf_param_0 28.246942679
conv17_2_mbox_loc_param_0 262.461097438
conv17_2_mbox_conf_param_0 41.0664206634
data 127.033239532
conv0 10.8546122405
conv1/dw 21.9689174791
conv1 3.37544468118
conv2/dw 19.1445310806
conv2 4.71738709348
conv3/dw 4.59820614046
conv3 3.42106427837
conv4/dw 15.5892518815
conv4 8.66156966607
conv5/dw 14.799565296
conv5 9.56802128064
conv6/dw 15.8153665941
conv6 10.5399075223
conv7/dw 13.1339207446
conv7 14.0346975736
conv8/dw 14.7030592328
conv8 12.370708375
conv9/dw 19.6982374561
conv9 8.14260696401
conv10/dw 19.7400047764
conv10 10.5782605512
conv11/dw 23.3206331016
conv11 16.7585329697
conv12/dw 22.8822106706
conv12 14.7530376997
conv13/dw 28.6683361259
conv13 5.46291092014
conv14_1 23.6808060224
conv14_2 26.9081833296
conv15_1 32.6812935783
conv15_2 20.7481958129
conv16_1 39.1085647054
conv16_2 25.8636239906
conv17_1 21.368959569
conv17_2 14.1117994016
conv11_mbox_loc 7.54745150164
conv11_mbox_conf 0.712908001511
conv13_mbox_loc 4.25555573279
conv13_mbox_conf 0.345332609161
conv14_2_mbox_loc 29.7524446794
conv14_2_mbox_conf 1.10564223976
conv15_2_mbox_loc 27.0860761157
conv15_2_mbox_conf 1.14964248488
conv16_2_mbox_loc 36.0152384467
conv16_2_mbox_conf 0.910049147259
conv17_2_mbox_loc 32.4984184045
conv17_2_mbox_conf 0.675903171496
