conv1_param_0 138.066410735
fire2/squeeze1x1_param_0 92.028103407
fire2/expand1x1_param_0 139.5878461
fire2/expand3x3_param_0 170.705731271
fire3/squeeze1x1_param_0 164.533747193
fire3/expand1x1_param_0 130.071935967
fire3/expand3x3_param_0 163.819819809
fire4/squeeze1x1_param_0 116.568016004
fire4/expand1x1_param_0 201.742919491
fire4/expand3x3_param_0 211.399362123
fire5/squeeze1x1_param_0 226.228115652
fire5/expand1x1_param_0 187.774837613
fire5/expand3x3_param_0 164.517905157
fire6/squeeze1x1_param_0 179.423649224
fire6/expand1x1_param_0 266.047646946
fire6/expand3x3_param_0 205.425388157
fire7/squeeze1x1_param_0 208.861314918
fire7/expand1x1_param_0 285.459333589
fire7/expand3x3_param_0 282.445537501
fire8/squeeze1x1_param_0 191.398736522
fire8/expand1x1_param_0 201.295234323
fire8/expand3x3_param_0 240.640160753
fire9/squeeze1x1_param_0 294.368678284
fire9/expand1x1_param_0 244.22330381
fire9/expand3x3_param_0 289.679206026
conv10_param_0 499.107042642
data 0.841264989609
conv1 0.295743466455
pool1 0.161700784564
fire2/squeeze1x1 0.0893839724101
fire2/expand1x1 0.128928090041
fire2/expand3x3 0.13760637974
fire2/concat 0.128852335538
fire3/squeeze1x1 0.0971199525337
fire3/expand1x1 0.171423229656
fire3/expand3x3 0.124295011616
fire3/concat 0.133442531118
pool3 0.109397851642
fire4/squeeze1x1 0.0652759203607
fire4/expand1x1 0.134355569726
fire4/expand3x3 0.0824975446534
fire4/concat 0.0859189409192
fire5/squeeze1x1 0.0819945548106
fire5/expand1x1 0.179214876713
fire5/expand3x3 0.111990834974
fire5/concat 0.128052485114
pool5 0.114620756734
fire6/squeeze1x1 0.0650375683754
fire6/expand1x1 0.155568373518
fire6/expand3x3 0.0936851316279
fire6/concat 0.107651530223
fire7/squeeze1x1 0.087563185785
fire7/expand1x1 0.234552836147
fire7/expand3x3 0.11335142531
fire7/concat 0.145018275864
fire8/squeeze1x1 0.125152598469
fire8/expand1x1 0.439600132251
fire8/expand3x3 0.165414202137
fire8/concat 0.251535496931
fire9/squeeze1x1 0.11218823679
fire9/expand1x1 0.309584429155
fire9/expand3x3 0.184434887035
fire9/concat 0.226503484356
conv10 2.4485219509
pool10 3.32336863982
prob 2024.0936265
